1D3
1C6
5A
68
3A
5A
1ED
58
19F
19D
1A5
81
199
1BB
4C
33
57
190
1CA
43
1A8
48
51
52
6C
4E
55
5B
1B7
1C0
55
75
45
1BF
19F
1C2
1A8
4A
51
1BA
72
1AD
1BF
198
50
27
1A3
18B
38
3A
43
59
1BA
47
1A9
1C2
1C6
1B1
66
1A1
19F
196
1A7
73
1A0
2A
28
64
30
1D1
1A9
1AA
1B4
1A5
196
3E
55
53
60
4C
6B
185
1B4
49
19F
19B
1B6
5D
1AD
3B
5F
40
187
1A3
4A
5D
55
4C
19F
3A
1B2
195
1AA
48
191
18D
1A5
1A6
64
1BB
1AB
1A9
6D
43
34
37
7B
60
1B8
1A5
1B9
1C8
1B
1A7
1C7
41
1E4
30
1E8
70
1C7
1D1
1B5
1C8
19C
1BD
1B4
2F
1C
35
1BE
1B8
53
45
4A
192
1CC
55
1CE
195
1B
38
62
4F
32
52
1D5
32
49
20
28
1CE
39
1E7
1B5
2E
1A6
55
2D
31
1DB
1C3
1C0
1DA
51
41
1BE
1B0
4D
1BE
1DC
1DC
37
73
1AF
2F
1A9
2E
1E6
39
3D
3A
1E6
1CA
39
1B7
53
1AD
1B0
4B
37
26
1A9
19A
1B3
2C
3B
1D0
6C
1D1
1EC
39
1CE
1D9
1D0
1B2
1AE
1CD
41
2F
1B0
48
2A
24
46
3A
1BE
1AE
1C5
43
1AB
1B4
43
41
46
3C
1D5
6D
2A
56
1C
1DB
1C8
34
54
30
2B
33
1E4
1BE
1BF
1B3
2D
1D9
4C
1B9
32
60
3E
1C0
1C3
1A4
197
3F
36
42
30
5D
4A
27
54
42
2F
41
1C4
1C7
1A2
62
34
1B4
1A4
1C1
21
40
1BC
1A0
25
54
1A4
40
50
4F
24
1CE
19B
44
1A6
1D2
4F
1B9
1B7
5A
1AD
1DF
1C1
1C7
42
34
1B5
1C1
1A7
19D
1D0
32
1A9
1AD
4E
48
3A
59
33
1AA
46
1D2
183
4D
1A3
4E
176
1AB
8
3F
2E
1A9
18C
1AC
36
1B9
5C
1D0
1E
4F
1AB
1E3
4A
34
29
1AC
1BD
1B2
57
1C9
1BD
4C
4A
1B1
46
1C2
1CB
1BC
1D9
1F0
1BC
1AE
45
1B0
4A
1B7
5B
1B4
1CF
2D
1E0
36
33
1D2
1B2
1B9
27
33
1AC
25
1DA
1C3
1E1
1D4
1C5
21
2E
33
1C2
64
47
53
1D2
33
53
5E
1C4
1B9
4D
30
1C2
24
1B7
43
1CD
1C9
58
47
56
37
22
1D6
60
4D
42
1CF
43
1B1
32
35
19A
1E8
34
27
4D
32
3D
42
1D7
44
1BE
5D
1D0
33
1C5
4A
1D2
1C2
4D
46
1CC
1BB
1C9
1DA
1B8
19B
2B
1C6
1BF
1BD
22
49
5F
40
1D6
1ED
1C7
1CF
31
28
45
4B
1DD
2E
2F
1E5
1C2
1B7
1BD
1D0
1C3
38
1D4
4B
1B0
C
1C6
36
19B
4A
35
1C2
5B
17C
1BF
19B
1E4
1C0
1CB
4F
35
56
1D3
1C4
23
18
55
1D0
19B
1AE
1E2
1B7
5B
60
23
39
1F0
3C
4B
54
1C7
1AA
3F
11
46
3E
5E
6B
2F
1A5
1CC
53
40
1D6
1BF
192
41
19A
1C9
1C7
43
44
5A
1A3
1C5
1A0
1B8
43
19F
38
1C7
4D
5E
4F
1AD
1D5
18B
1AB
33
1BD
1B7
1B8
59
1AD
1CB
45
19B
55
45
18F
1D5
1C2
4F
5B
1B2
1AB
5A
5D
1D7
61
196
1DD
43
33
1AC
45
72
4B
81
5C
193
184
76
5A
1D6
19F
19E
4D
3C
3C
1A5
3F
177
1A4
1A5
38
4E
49
33
69
1B6
39
1D7
39
1D2
66
48
83
3C
1BC
3C
1CA
43
1D0
4C
34
40
6A
1BA
1C8
19B
1E3
1D7
56
19F
1B6
1B3
1C1
2E
34
43
1A6
4C
4F
1B7
18C
7D
31
66
1C3
1B6
1C0
1B4
193
195
1D1
1AE
197
1C0
43
74
34
5E
1C9
18C
1BC
1D8
35
5D
49
1BB
54
47
31
1B8
5F
44
5C
1DD
1B8
1C1
1C1
52
47
1B7
1A6
48
196
1C7
1A6
3D
51
51
59
34
194
1AC
193
5A
51
1B4
56
48
19A
1AF
1BF
18A
1AC
1AB
2C
1D8
12
6B
3A
192
1C5
38
1BA
4F
1A8
50
5D
1DD
2F
63
67
1C0
2C
1CD
19C
1E7
4B
1CB
1CF
1D6
1E1
176
44
36
38
1AA
172
61
1D9
191
1C9
46
1D5
24
50
5C
5C
195
25
1AD
1B5
1C9
1C8
48
1D5
43
53
182
31
19B
4C
19F
70
5E
77
5C
37
1C0
1C8
1BC
2E
1C3
43
1AA
52
1AC
1CE
171
1B
1C3
1B2
1BF
1DC
43
48
40
22
1BA
72
1D7
1B7
1C6
56
1D2
50
190
25
1C8
46
1E5
37
1AC
47
1C1
25
3F
44
1CE
52
4D
3E
1D2
1C4
20
63
1A0
58
63
5A
48
1D4
1AE
5E
47
46
1AC
7B
1C4
1B1
58
1A9
1B5
31
7C
57
1B2
1A1
70
2E
1BE
31
4C
1D1
1C4
1CC
1CF
30
43
1B4
51
4C
1A6
43
43
47
1D4
3D
51
4E
1A1
1B5
1DE
23
44
1BD
45
1B9
3F
1B7
5D
6C
2A
61
1E0
4A
32
1AF
54
1A5
4D
1DF
1CE
5D
43
5F
57
39
1E1
2B
1C2
1C5
50
191
3F
1B5
1E1
1E5
1E9
44
1C3
6C
172
19D
45
1B3
37
1A
1C6
1B6
1A5
3D
1BC
3D
4F
1BB
1C8
19B
18A
1E1
1B
1C6
1CB
58
52
20
4E
2A
5E
4E
3E
73
1CC
1DD
1B0
5B
1D
1A8
3B
4E
1B8
64
1C4
1B7
1CA
1B7
3F
5C
1DE
188
1B
1B7
3A
39
4F
1E8
1B6
1DF
3B
1C5
1DB
1E1
1A7
1A5
1B6
1B1
1BA
1DB
1C7
1AA
47
52
5B
1D2
1AE
3A
1F5
19B
20
1C0
5D
42
1C3
45
1BC
3C
1A0
1B8
1BE
1DA
27
58
1CE
4C
1C7
1A6
1BC
24
16C
1C6
198
1AB
1A8
1C5
19C
49
28
37
19
43
4
1AD
49
43
8B
1C0
1B5
1AA
1A0
6F
1AF
1C8
1C7
3B
196
33
43
68
188
4B
3E
55
19E
2D
72
5B
1BB
50
1AC
1B9
8B
46
1B0
2C
4A
51
4D
8C
22
52
19A
1C3
1AD
35
1C9
19B
1CA
199
73
1B8
24
62
23
1CD
1B3
2D
196
1A9
35
23
195
1BE
63
3B
19C
1AF
41
39
52
50
47
1BE
2F
23
1F0
42
1CE
38
1DF
1C7
1EE
1AA
61
1DE
4B
1B1
1BD
1F1
3A
49
1DE
1CB
1BF
1CE
1BD
1B4
1C3
71
1A8
1A8
1C3
41
1E1
5B
1DC
39
4D
1D4
1F
58
1B9
58
19
36
E
1CA
51
33
1C8
1D8
1D2
1AE
3A
38
1AB
2F
5F
1C5
1EF
3E
1DB
2C
3B
37
5C
5E
1BF
25
6A
48
47
19
1C7
1B1
1D0
3D
3F
1C5
46
3C
42
4C
2F
2C
49
1C1
1AE
4F
1C7
1BA
66
3B
1C6
37
54
3D
2D
23
1CE
50
1DF
4E
1D3
1C5
39
1DC
1BB
1A1
40
19
1C3
1AF
1CC
55
40
1BC
25
1B6
4F
1BE
1B0
1DA
1DB
1C7
62
79
1A2
18B
6B
9A
7B
99
169
64
70
9A
1B5
194
198
13
70
61
9F
186
84
153
178
3E
1B8
17F
41
5F
2D
51
5C
BA
2E
68
1D5
15E
168
8C
186
42
5D
4B
97
56
1B5
1BB
1B1
1E2
186
19B
194
16B
37
15A
1AA
172
7B
18E
1AC
17C
42
8A
1EB
1A0
17B
1B6
16F
1D
81
16E
A3
1AD
1B4
18E
69
47
15B
4A
1A8
1AD
56
17E
4E
58
1AB
1A0
1A
1AF
54
34
1CF
1B3
1C2
1C1
1B5
121
177
177
174
9F
6A
61
70
161
154
38
75
6D
8C
81
4C
2A
179
182
1A4
A7
42
1EF
57
6A
1C7
2E
1C3
1DB
3A
1D6
1A8
42
3B
1E5
1C4
1DC
53
1F
1C9
1ED
1FC
1DA
1C3
1A8
2F
1B6
1B2
17
1E4
1CB
1C4
2A
24
4E
1D
1C3
62
1B0
40
1B4
1C3
19
1D1
37
2D
46
1C9
1D2
44
3C
43
1BF
1E5
24
2B
3E
3A
1D6
3A
1E7
55
1D5
8
36
26
34
2E
2F
2B
42
1DB
1D7
46
38
2A
25
47
1CD
1BA
3C
42
1C4
1B7
46
1B3
1DF
1E0
1DC
1EB
31
1CB
1CA
37
1C7
62
43
1C0
55
61
1E0
1D1
33
2A
1BC
1C
1B8
1C9
1A9
197
1C3
1BF
1CC
3B
46
32
1DD
1F
3D
1C2
1EE
16
1E6
3F
4
